/**
  ******************************************************************************
  * @file    network_data_params.c
  * @author  AST Embedded Analytics Research Platform
  * @date    Thu Feb 13 20:46:46 2025
  * @brief   AI Tool Automatic Code Generator for Embedded NN computing
  ******************************************************************************
  * Copyright (c) 2025 STMicroelectronics.
  * All rights reserved.
  *
  * This software is licensed under terms that can be found in the LICENSE file
  * in the root directory of this software component.
  * If no LICENSE file comes with this software, it is provided AS-IS.
  ******************************************************************************
  */

#include "network_data_params.h"


/**  Activations Section  ****************************************************/
ai_handle g_network_activations_table[1 + 2] = {
  AI_HANDLE_PTR(AI_MAGIC_MARKER),
  AI_HANDLE_PTR(NULL),
  AI_HANDLE_PTR(AI_MAGIC_MARKER),
};




/**  Weights Section  ********************************************************/
AI_ALIGNED(32)
const ai_u64 s_network_weights_array_u64[575] = {
  0x3bc2ac003ea4ccc0U, 0xbe6d8ef33d7d6176U, 0x3d4e56f73dfeef24U, 0xbdddea2cbf07ee01U,
  0x3e855667bd9f86aaU, 0xbd2f31903dbfa5a9U, 0x3deefec23e203d17U, 0xbe3820623dd8be54U,
  0xbd3c1922be2f285bU, 0x3cf7daa43ee3dd6aU, 0x3e6bc54b3e147875U, 0xbe2ca0f1bdf5512dU,
  0x3e66daa4bf277dcaU, 0xbe46e6a83dacc287U, 0x3e53edc0be9c0511U, 0x3e1752823ebf1289U,
  0x3ea04cc33e98af7bU, 0x3e4936023e4a0f64U, 0xbeb0ca6fbec47bb9U, 0xbcb59d91be767860U,
  0x3d26e6f93e773b30U, 0x3e5e1b3f3e370993U, 0xbf096b253e08a65cU, 0xbede82e53d0cff99U,
  0x3e3817a2be577d12U, 0x3cda60ef3d6bb976U, 0x3e4a0ed73f135d40U, 0xbe47e533be973c1dU,
  0x3e38ad58bde8359fU, 0x3e0562273df9469dU, 0xbf2f87473b4ae77cU, 0xbbd34ee6bd1725cbU,
  0xbe9337fe3d7d2d0eU, 0xbd4e3646bd2c9510U, 0x3eb9142abe2123e7U, 0xbdbe8d07bf035902U,
  0x3ea5dcb43e37aea2U, 0xbe831998bbfd139dU, 0x3e11a4e6bdc5977bU, 0xbeddf13a3ebe34d0U,
  0xbe1f529b3ea78a68U, 0xbddffb113d4c9877U, 0xbc9c9a333da56cfdU, 0xbddb2b71be15c322U,
  0xbd42747cbe907d38U, 0x3e362e64bee8f0aeU, 0xbe18611bbeaea048U, 0xbcb2488a3daa0b10U,
  0x3cb76324be008385U, 0xbe997286bd14fe63U, 0xbee67f953eaf1164U, 0xbd5e3e4b3cf4eeedU,
  0xbe481d76bde0ba42U, 0xbd0a010f3d762c5eU, 0xbe998e733e6b159dU, 0x3e5ce8eebe85c082U,
  0x3e3353e93e86d9a6U, 0xbd501eb43db193b6U, 0x3ecf54f43bbc3ca6U, 0xbe328d6fbe86f498U,
  0xbd8e2434bd944a01U, 0x3e93a2f63d8552d0U, 0xbd87b7c9bc171e50U, 0xbd9baae83f07afc8U,
  0xbcc1f2babc8b49edU, 0xbeb0d66ebee8aaebU, 0x3e848943bcdfc3a4U, 0x3e30cece3e61fed6U,
  0x3a87c7443e32f35fU, 0x3dd867413e17c65fU, 0x3e35fc0bbbdc0b8aU, 0x3d3f17c0bf19978fU,
  0x3d49dce93caad9d9U, 0x3d982f913e66ef59U, 0x3d8ad936bc5f8138U, 0xbee1ff823da3cfeeU,
  0xbea5c0d1be037a29U, 0x3e0feb5abd736cc2U, 0xbe5acda5beb29c2dU, 0xbd9f700dbdbd4d11U,
  0x3df2d5fdbe8b901eU, 0xbe22ea4fbc787727U, 0x3ec38b60bd5ffcfdU, 0xbd58daaa3de0fb9bU,
  0xbe0a88703d5e2789U, 0xbed8701ebd2701c6U, 0xbe5cd71cbecccd50U, 0x3e3ddada3e25b61bU,
  0xbd120dd03d2b2e31U, 0x3d9a6ebdbeb572b8U, 0xbe8baefcbeae9cf7U, 0xbe18185ebec734b6U,
  0x3e1e98103c989ee1U, 0xbe51ac123d03dc9fU, 0xbdc31c4b3e1096a7U, 0xbee8c369be012407U,
  0xbe5b6c4b3e3148d3U, 0xbe3652a5be5dddc6U, 0xbc84406bbe4215f2U, 0x3e272a96bdb613ddU,
  0x3e4f039cbe2b9312U, 0xbd0c75f0bc61f268U, 0xbd95931abc128370U, 0xbec79187bd92e744U,
  0xbe856bed3e53d0dcU, 0xbe4f4590bdf31656U, 0xbc2fb566be5a501aU, 0x3e0732b83d169750U,
  0xbdabdde83ed70bcdU, 0x3e4b0cb6bd79a492U, 0xbea7e3a53dcb6d56U, 0x3ec9fd833ec0b4b5U,
  0xbf071665bdfcb998U, 0x3eb499b83da9b209U, 0x3ecc2d513e278649U, 0x3e8d17203e809786U,
  0x3e4554f2bed115acU, 0xbeb895a43ea53976U, 0xbe5c6fb73e9a410bU, 0xbd526a323e462260U,
  0x3d5b9f103cb7274bU, 0xbe475adabd469af0U, 0xbd8017a2bea35cc7U, 0x3dde21e53dcf15bdU,
  0xbf0bc47a3e237a53U, 0x3e2b36233dd81555U, 0x3d874dde3f0eab86U, 0x3e583cf3befa026dU,
  0x3cf11da0bcde7be6U, 0xbe37b202beab0737U, 0x3e4913063ec5da9fU, 0xbdc75510bef62c31U,
  0xbd04adbdbf2735a6U, 0xbd316497bf0afbacU, 0xbf3c9fa63e1f07c5U, 0xbd3bb690beb63587U,
  0x3e1762243df7b470U, 0x3dd1f4993e1ce416U, 0x3d2d760ebea770c2U, 0xbeb73a473da35c18U,
  0x3eeddc983e446737U, 0xbef664f0be30981eU, 0x3e8f792f3e7a8550U, 0xbf13277b3ef2b0cdU,
  0xbea61fbb3d8ba77fU, 0xbe55ff673eb1bd18U, 0x3ee7b71c3e6aa7abU, 0xbe84b57ebe4936f5U,
  0x3f382c1fbe864ef8U, 0xbd383b5a3cf06bb1U, 0xbe4d0274bcfd9029U, 0xbc3cf49fbd213c37U,
  0x3f0ed619bcae0068U, 0x3de49be73da0fc17U, 0xbdc4824abd8b68c4U, 0x3dc0f29dbdff38e0U,
  0xbdbf04a1be7336b5U, 0x3e9122d73deb2625U, 0x3cec2ea1be78f280U, 0x3e014c8ebd34d695U,
  0xbdfaf340bed6456bU, 0x3d891548be3729cdU, 0x3e473ccdbdf2d816U, 0x3dbbc310bdbc7686U,
  0xbd81aa56be86d37fU, 0x3e6191d33e2306feU, 0xbe5dd2aebe51c6dcU, 0x3e0ed1b9bd927cccU,
  0xbec36813bed587e3U, 0x3e6c0fc63de4b048U, 0x3d24d9f8be183ac9U, 0x3e70dd4a3dbb6650U,
  0xbda3e9cebe15b977U, 0xbd31333abdee5be9U, 0xbdf661203cdfe596U, 0xbe3065adbe0898b0U,
  0x3d70168dbd4f51dfU, 0xbe0241c43d03f0a7U, 0x3d9cba26be58f53cU, 0x3df6fe49bd140fe9U,
  0xbd995ce2be3892e3U, 0xbe54b718bc00921dU, 0xbe4237343b557425U, 0xbe834797bd52b104U,
  0x3ddd7c003efe4d29U, 0x3e8d9c3d3e88cbb6U, 0xbd04fab73bf81df5U, 0xbe34fccdbdb927afU,
  0xbe127e103eea8f03U, 0x3e52ca07bc0de100U, 0xbe25ea2a3de85dc4U, 0x3e00d8bebc6e1041U,
  0xbe55ea913ea0db48U, 0xbe917549b8ad869aU, 0x3e05ed543e00489bU, 0x3ea3653abf00ed11U,
  0x3dc0caa0bd5e6e0bU, 0x3d12a5ddbe5e8265U, 0x3d4bf3b03e422a03U, 0xbeb9e2e03ccf4e10U,
  0xbd8ae9d7bec62e0cU, 0xbec0452d3d0c3c66U, 0x3e7a549a3e8fd22eU, 0xbe59d29cbdb0c701U,
  0xbe70d979be9527daU, 0xbea52ad13e8edadaU, 0xbd0743d7bc38ed27U, 0xbdb472623dac8477U,
  0xbe3d97bd3ecbccddU, 0xbe35c4bdbea842edU, 0x3d34b3be3e96b93aU, 0x3bf6d9a9be65ec0aU,
  0xbe93e2c13d80a0a9U, 0xbd878cd7bde06aecU, 0x3e92a720bca8362bU, 0xbd8b1ef0be96c2adU,
  0xbe0fbbf5bcec737dU, 0xbe6a2661bd347544U, 0xbde5b8a13e3fc173U, 0xbe54fcafbe9e59eeU,
  0x3bf0dab0be3e8bc6U, 0xbca9daecbcd4efacU, 0x3ddd6fe23de4fe1bU, 0x3e54f9683e90010aU,
  0x3e7192bc3d9170c8U, 0x3d4274e13e203c47U, 0xbceeb046be71a7afU, 0x3e22c5d43dacdeb6U,
  0x3deed0573d9a6916U, 0x3e5e2b7bbd928de3U, 0x3bf64286be9fced5U, 0x3e9e923c3d0cbae9U,
  0xbf2814bebf0b47b5U, 0x3da8e9ac3ea08436U, 0x3ce4c6ed3dd33c94U, 0xb8a3230c3ccf1aa1U,
  0xbf0b181cbee8c21fU, 0x3d1009363e7bb234U, 0x3ec145153e902a77U, 0xbaca6977be8172dcU,
  0xbeaa75c9be669784U, 0x3e88943c3d0e7db1U, 0x3e62c8d7bcdf7ac4U, 0xbd0d7205be50c8dfU,
  0x3d3ac7753e81503cU, 0x3d7a38bcbe7e6401U, 0xbe3b40133e76d892U, 0xbdd916603e480d91U,
  0x3e067184bdb3878cU, 0x3ad4318cbdfd5edeU, 0xbeb25d9f3e49ec2bU, 0x3e87d9363e443fcaU,
  0x3c6dbfbbbd9f6af9U, 0xbe05a57b3e70ed9cU, 0xbe9cb082be8413ebU, 0x3dd91a733e2ec5fbU,
  0x3eaf9a6b3e92bfaeU, 0x3ecad3ec3e4d4f34U, 0xbd4999cbbea498eaU, 0x3e7d22d2bd7387a4U,
  0x3e6cea373dbdfa45U, 0xbc922eee3c987a0dU, 0xbde73de63e478a40U, 0x3db932113e1be1cfU,
  0x3dbcefaa3d5f349bU, 0xbc9e2a643c838893U, 0x3ee524393eb6d129U, 0xbd33ad2cbcfc3ba2U,
  0xbe84d3f8bddc9f7dU, 0x3ec3d35bbccb2d97U, 0x3e6862d9bdec0bceU, 0x3e8d9495bea0f34cU,
  0xbd8f4fd43df9c24dU, 0x3ee7dd8b3e23d286U, 0x3d90887bbea695e4U, 0xbef2e09f3e180e4dU,
  0xbeb29740beaa06e6U, 0x3ec3601b3d3e6878U, 0x3e231de1bdaa2822U, 0xbf6358123c66eeb1U,
  0xbe9dbee1bde5a6e5U, 0x3eb5dc2abd89576cU, 0x3da8ee35bdb8dd77U, 0xbf1c8953be8ced5cU,
  0xbe349f03be2db6afU, 0x3ea26fa73e29a534U, 0x3e2b23e63ca0f249U, 0x3e91c7debea2bd63U,
  0x3dd646d6be9306edU, 0x3d965d23be1a7934U, 0x3eab29d13e8d00b6U, 0x3e1e69ddbe8e44cbU,
  0x3e23a436beac6dc8U, 0x3cb1aed4bd3b1adeU, 0x3de38a0a3ece54f9U, 0x3d50a8bc3e081c5bU,
  0xbde1c21b3c8791f3U, 0xbd774886be7ac79bU, 0xbb6dc9f13dfe53f1U, 0x3e71d7023dd83bf4U,
  0xbe0924253ea08bdfU, 0xbcbb8d75be141385U, 0xbcc0844b3de62ff0U, 0xbe9d77cbbe0ebb82U,
  0xbdf7d916bef38c2eU, 0x3e106f1e3dff9de1U, 0x3e98d72e3e09beb3U, 0xbe559774be41a4d0U,
  0x3ddab2683e7f3b79U, 0x3e6fd3bcbe0fef10U, 0x3e8512d53dc28113U, 0xbb9a5a653e4e15edU,
  0x3e1f10b53ecbdaf9U, 0xbe733bf33daf08cbU, 0x3e9887e03e1a9fefU, 0xbe52e2bebdcd45cfU,
  0x3d949d9a3d868c95U, 0xbe23b89d3e645130U, 0xbce7209d3e673a41U, 0xbe26fccabe76b513U,
  0x3bcf4abebe40e65aU, 0xbc8e66b8bd2a1d78U, 0xbd6c9fa3bcf1da41U, 0xbe6ddba4bd1f210bU,
  0x3cf2438cbd05be8aU, 0xbe6239b33d820963U, 0x3d14c55abd62eb0dU, 0x3a900ec8be354479U,
  0xbe51ff47be8ccb2cU, 0xbbaa5090bd0129ffU, 0xbe7a722abe70e0acU, 0x3d3cc7a5be4a35a3U,
  0x3e12d8cfbea26981U, 0x3e6e88b3bce79cbbU, 0x3d8c4c553e0f7b1bU, 0xbe6b5ee0bebb993dU,
  0x3d7dc5c33e2b53e0U, 0xbd697d583e488384U, 0xbf0f7d643dca22afU, 0xbe51b656bd8a04adU,
  0x3e887f2c3ec6a2caU, 0x3e811ca0bd9fcf26U, 0xbd839cdb3dd0300eU, 0xbd9dfa723e84c6c6U,
  0xbdc84b8a3d0d9fb2U, 0x3d9ca6223d0a6fbcU, 0x3e9390acbd5a44bdU, 0x3d2ca683bd2435cfU,
  0x3e39649e3ec270afU, 0xbea2517fbe3160a0U, 0xbed40019bec71e3fU, 0x3e136eec3e109c9dU,
  0x3eb53cec3e8d072dU, 0xbec3aafd3dbe694fU, 0xbeaca5373c92be15U, 0x3b7388ae3de97bc6U,
  0x3d56d812bd89ecf2U, 0x3e303e2ebe0906b5U, 0xbf22484f3e8ebcafU, 0xbd98ce62bd2db534U,
  0x3ea2331d3dec1c1dU, 0xbe0237f33e7492cbU, 0xbe60ae1a3e42e298U, 0x3e8800a2bd8ee47bU,
  0x3e8aeaf53d32fecfU, 0x3e1eb4b43e9a1bf7U, 0x3e0be0223f07281dU, 0x3d5539e1bdc4bc73U,
  0xbdaa46d9bea381a5U, 0xbb06d24b3e42b8acU, 0xbe6a3be6bc37866bU, 0xbddf87203bedd520U,
  0xbec73bfebe82304aU, 0x3e70b5483f089fbcU, 0x3e7e34d63e8ced30U, 0x3df0ba68bdd91af6U,
  0xbeb717e1be505b7fU, 0xbe9380793e39c422U, 0xbe320238bee05ffbU, 0x3eebd3d83dd65cc8U,
  0xbe060be33de120ecU, 0xbf1bd11ebe65e829U, 0x3e9290b4bedd7ea8U, 0x3e0d8e653d618eacU,
  0x3dea9bf03ceef714U, 0xbb7135f83ebf1206U, 0x3b1684e93dfce0bfU, 0xbc4ae2453e820a90U,
  0x3e51ca363d189833U, 0xbe18cb803e88e2fdU, 0x3c9d3a253dd15bb7U, 0xb9bb4cc73e7dd8a1U,
  0xbdb4852cbe081876U, 0xbe9b1bea3d759a56U, 0xbe206cad3eab015bU, 0x3e8f8e463e141969U,
  0xbebc9501bdab3c76U, 0xbe18db82bf1f54e2U, 0x3eb1378fbf1065e0U, 0xbf0ba43e3d965d53U,
  0xbe9480ed3cbbeb01U, 0xbe2228e0becc8abeU, 0x3dbc2939be919630U, 0xbeb3c0f3be40b205U,
  0xbeac9bd23e3ac7e9U, 0xbbcf165a3cf73283U, 0xbd2d32ccbe38501eU, 0xbdb7c389bc37c662U,
  0xbefed009be8c0c2dU, 0xbd4c7a5e3e8081e5U, 0x3e9831fe3e3a946cU, 0xbea1da473d98feb1U,
  0xbdc32d31be8c3e21U, 0x3d9ab021bcc6719bU, 0x3db45bb83ddb1edeU, 0xbe1d8cdebe45bf2dU,
  0x3e84d81abcd685feU, 0xbadb524fbddc466eU, 0x3d6f46aa3e2db4c8U, 0x3ec54905be70972fU,
  0xbe33941ebe9ce76fU, 0xbe7607773d8e54d8U, 0x3dde163dbeb57afcU, 0xbe6498bdbcee6fb6U,
  0x3e3767753dee6051U, 0xbd7e0ec53d0b5e0bU, 0xbe9930863e717160U, 0x3e0724323d8fa964U,
  0x3e7da4413d1a6284U, 0x3e0722a93df42c92U, 0xbee9b13f3eb73f07U, 0xbc869b1fbe5b8aa3U,
  0xbeab5b18be20824cU, 0xbe7bb9a5be8c46fbU, 0x3eda8d55bebfb413U, 0x3eb6ac8abd953a47U,
  0x3b55d6bbbe7065d4U, 0xbeb6d2b23e0757aaU, 0x3efd649f3eb44b63U, 0x3e6aa96bbc63d4e6U,
  0x3d43d24f3e6546fcU, 0xbd1dd6dbbec2c596U, 0xbef90a903d95d84bU, 0xbddfd4ecbe3327c0U,
  0x3eb4e7543db33252U, 0xbeb876923c0908c5U, 0xbd8e034e3f721cd8U, 0x3f34e8e43f699c9fU,
  0x3e3e7a903e2a65ddU, 0x3e0741f3bc0b4875U, 0x3e2a2f9c3e646216U, 0xbf14fa2dbe79e844U,
  0xbc6d9e773c110242U, 0x3e242714be9049b1U, 0x3e9745253e87307cU, 0xbca662b3bce15bc0U,
  0xbe6a6c7c3df1628eU, 0xbd3acb81bdb21482U, 0xbec1262b3ebd111fU, 0x3e4d54c13d262da1U,
  0xbdfc8d6d3e2f72f2U, 0x3e23b5c5be63efb8U, 0xbdb972f43eb761e5U, 0x3f0417013e32ae40U,
  0xbe43472a3e81e56cU, 0x3e22a16ebee22143U, 0x3cbbc6ebbdd1d220U, 0xbd76db013e9aec1eU,
  0x3e1519483e527da7U, 0xbe478c70bf18ded1U, 0xbf1b822b3dee17e7U, 0xbe1625aa3ea9fffaU,
  0x3e8936153dec6c10U, 0x3e6bc3493df37540U, 0xbe372cd6bdc33e6eU, 0xbe75316fbe1c8171U,
  0x3ec000b3be406d90U, 0xbccefc74bc8fd4d7U, 0xbe4a149fbea719d6U, 0xbd7c1c4cbe011a16U,
  0xbd9c4a283a476b1aU, 0x3c8febc13d8843d0U, 0xbd9cd1f7bded435eU, 0xbe9f2cb4bcdffd3eU,
  0x3e20b0d1be0f7504U, 0x3c6680cabf274260U, 0x3eec1063bd652d16U, 0x3ee4dc9ebe0d2a46U,
  0x3eaf14373d993c5aU, 0x3d90c1b5beeba319U, 0x3d1bae15beda46d9U, 0xbe055ac23e68a56cU,
  0x3dc9ae563dbc3622U, 0xbdcbaf013de75a02U, 0xbd3218fe3d252985U, 0xbe197067beb57c45U,
  0xbe68455dbd717a64U, 0xbe07b6353e45260aU, 0xbdf653163f0d9040U, 0x3e83d99fbe228153U,
  0x3c631f8cbef194e2U, 0xbea25774bdf48dc8U, 0xbe42468e3ebb91c9U, 0x3f22e7cabe5dc982U,
  0xbd490c29be87919bU, 0xbe23717c3dbb42e2U, 0x3e2ed2103d51f326U, 0x3d6a5816bf0fbe4bU,
  0x3ed36539be9c79feU, 0x3c16c7ca3dacee5eU, 0x3ebc65ef3e5cf8f5U, 0x3d88e9483e6c4080U,
  0x3e9db381be26597dU, 0x3db4b2273ea8acb3U, 0x3de06b213df270cbU, 0x3e98a5623ee3096aU,
  0xbe2a3f3fbe0abbb0U, 0xbd464a2b3deb93ffU, 0xbdb110a1be9da023U, 0xbde660b7bf3baf4fU,
  0xbf12bd8e3d416ca3U, 0xbd7632b93e2f7539U, 0x3eb61457becf7f35U, 0xbebf9fe4be50416eU,
  0x3da34af43db4aac7U, 0xbea15f503e70c82dU, 0xbddc09a03ee65a1bU, 0x3f08b3c23f087423U,
  0x3ee62b4e3e1a30b9U, 0xbe8e84ccbe436793U, 0xbdd7b5bd3f02c7efU, 0x3e7e4d813eec8cbbU,
  0xbe841df0bf47ddc5U, 0x3e15b4653eeb3dcdU, 0x3ea435d13e00de23U, 0x3debeea43ec59fa7U,
  0xbe9e293fbe252656U, 0xbdc08e9a3ee824b7U, 0x3ed481aabf369fdaU, 0x3d1dbf9b3e8ad335U,
  0x3e2829153ea1cce5U, 0xbe2b7779bebd8d1dU, 0xbe4d4545bf09ce24U, 0x3e8a6be73bc90edfU,
  0xbcdd95ff3e046da2U, 0xbe028a30bce253a2U, 0x3e80ab6a3e5a48ddU, 0xbe518a9c3f3d4f6cU,
  0x3be1b686bd1651cfU, 0xbe143bdf3cd96c7dU, 0xbdc711ebbe8659b9U, 0x3eb25742be0d025eU,
  0xbe3fea2a3f0c0f0fU, 0x3e7afa443d4a1427U, 0x3ddef6fbbed71f68U, 0xbe62ce6fbf08a994U,
  0x3f08ef5dbe9e789aU, 0x3e9b82563e449de2U, 0xbe26a773bd25744cU, 0xbe52bc94bedf7406U,
  0x3db9a39dbe397833U, 0xbebdf615be9b12f4U, 0x3f36d3963eaa283cU, 0xbea106183df99207U,
  0x3de8fc35bd09c469U, 0xbecad03abdcc2686U, 0x3e2df218beeaaea8U, 0xbf01dde23f364ce7U,
  0xbe576260be308238U, 0xbe753ae53f3264ceU, 0x3e9b2030be960794U, 0xbd9cdbf7be072a7aU,
  0xbeb87e6cbeb60709U, 0x3ec03222bef5e7efU, 0x3d202e2d3f2a4a41U,
};


ai_handle g_network_weights_table[1 + 2] = {
  AI_HANDLE_PTR(AI_MAGIC_MARKER),
  AI_HANDLE_PTR(s_network_weights_array_u64),
  AI_HANDLE_PTR(AI_MAGIC_MARKER),
};

